<?xml version="1.0"?>
<opencv_storage>
<stage5>
  <maxWeakCount>8</maxWeakCount>
  <stageThreshold>-1.7728782892227173e+00</stageThreshold>
  <weakClassifiers>
    <_>
      <internalNodes>
        0 -1 97072 -1.9826316833496094e-01</internalNodes>
      <leafValues>
        2.0338982343673706e-01 -7.1633750200271606e-01</leafValues></_>
    <_>
      <internalNodes>
        0 -1 162072 6.6076428629457951e-04</internalNodes>
      <leafValues>
        1.3943140208721161e-01 -8.0502516031265259e-01</leafValues></_>
    <_>
      <internalNodes>
        0 -1 13037 -5.4353596642613411e-03</internalNodes>
      <leafValues>
        3.4089621901512146e-01 -4.6283343434333801e-01</leafValues></_>
    <_>
      <internalNodes>
        0 -1 12240 -1.9729309715330601e-03</internalNodes>
      <leafValues>
        -8.2230377197265625e-01 1.8593534827232361e-01</leafValues></_>
    <_>
      <internalNodes>
        0 -1 12822 5.0488632405176759e-04</internalNodes>
      <leafValues>
        2.5269165635108948e-01 -7.7131932973861694e-01</leafValues></_>
    <_>
      <internalNodes>
        0 -1 157598 -3.6174862179905176e-04</internalNodes>
      <leafValues>
        -7.0340090990066528e-01 2.1414211392402649e-01</leafValues></_>
    <_>
      <internalNodes>
        0 -1 154999 5.5879424326121807e-03</internalNodes>
      <leafValues>
        -4.3796569108963013e-01 3.6981821060180664e-01</leafValues></_>
    <_>
      <internalNodes>
        0 -1 12807 -5.1661609904840589e-04</internalNodes>
      <leafValues>
        -8.8578158617019653e-01 2.0102392137050629e-01</leafValues></_></weakClassifiers></stage5>
</opencv_storage>
