<?xml version="1.0"?>
<opencv_storage>
<stage14>
  <maxWeakCount>10</maxWeakCount>
  <stageThreshold>-1.1937695741653442e+00</stageThreshold>
  <weakClassifiers>
    <_>
      <internalNodes>
        0 -1 156435 2.1363001316785812e-02</internalNodes>
      <leafValues>
        -6.5888690948486328e-01 -6.7796610295772552e-02</leafValues></_>
    <_>
      <internalNodes>
        0 -1 161183 -1.3258724357001483e-04</internalNodes>
      <leafValues>
        -5.8708006143569946e-01 9.5694169402122498e-02</leafValues></_>
    <_>
      <internalNodes>
        0 -1 98639 6.6302854975219816e-05</internalNodes>
      <leafValues>
        1.9205094873905182e-01 -4.3992626667022705e-01</leafValues></_>
    <_>
      <internalNodes>
        0 -1 37800 -1.6885527875274420e-03</internalNodes>
      <leafValues>
        3.0013874173164368e-01 -2.9972165822982788e-01</leafValues></_>
    <_>
      <internalNodes>
        0 -1 92336 2.8049297630786896e-02</internalNodes>
      <leafValues>
        -1.3344891369342804e-01 6.8844717741012573e-01</leafValues></_>
    <_>
      <internalNodes>
        0 -1 6317 3.9604408666491508e-03</internalNodes>
      <leafValues>
        -3.0656865239143372e-01 3.6956334114074707e-01</leafValues></_>
    <_>
      <internalNodes>
        0 -1 161975 -3.8187223253771663e-05</internalNodes>
      <leafValues>
        -5.6054180860519409e-01 2.2335813939571381e-01</leafValues></_>
    <_>
      <internalNodes>
        0 -1 102206 -1.2505939230322838e-04</internalNodes>
      <leafValues>
        3.1132513284683228e-01 -3.1424751877784729e-01</leafValues></_>
    <_>
      <internalNodes>
        0 -1 142827 -1.4435107586905360e-03</internalNodes>
      <leafValues>
        -9.3064975738525391e-01 9.9444121122360229e-02</leafValues></_>
    <_>
      <internalNodes>
        0 -1 124269 -6.0123600997030735e-04</internalNodes>
      <leafValues>
        -6.7724013328552246e-01 1.0800868272781372e-01</leafValues></_></weakClassifiers></stage14>
</opencv_storage>
