<?xml version="1.0"?>
<opencv_storage>
<stage10>
  <maxWeakCount>8</maxWeakCount>
  <stageThreshold>-1.6487828493118286e+00</stageThreshold>
  <weakClassifiers>
    <_>
      <internalNodes>
        0 -1 156293 2.4945242330431938e-02</internalNodes>
      <leafValues>
        -7.7133107185363770e-01 1.6799999773502350e-01</leafValues></_>
    <_>
      <internalNodes>
        0 -1 75163 -4.7067007981240749e-03</internalNodes>
      <leafValues>
        4.2567253112792969e-01 -4.6406009793281555e-01</leafValues></_>
    <_>
      <internalNodes>
        0 -1 108017 -3.0869961483404040e-04</internalNodes>
      <leafValues>
        -8.7350040674209595e-01 1.6798928380012512e-01</leafValues></_>
    <_>
      <internalNodes>
        0 -1 91347 3.1078903703019023e-04</internalNodes>
      <leafValues>
        2.4220770597457886e-01 -6.5552395582199097e-01</leafValues></_>
    <_>
      <internalNodes>
        0 -1 139880 -1.4570904895663261e-02</internalNodes>
      <leafValues>
        4.6370661258697510e-01 -3.0729714035987854e-01</leafValues></_>
    <_>
      <internalNodes>
        0 -1 64586 -1.2907770462334156e-02</internalNodes>
      <leafValues>
        5.3527772426605225e-01 -2.7738070487976074e-01</leafValues></_>
    <_>
      <internalNodes>
        0 -1 100573 -7.8380468767136335e-04</internalNodes>
      <leafValues>
        -9.0300351381301880e-01 1.9343498349189758e-01</leafValues></_>
    <_>
      <internalNodes>
        0 -1 161979 4.5794399920850992e-04</internalNodes>
      <leafValues>
        -4.3234583735466003e-01 2.9618340730667114e-01</leafValues></_></weakClassifiers></stage10>
</opencv_storage>
