<?xml version="1.0"?>
<opencv_storage>
<stage9>
  <maxWeakCount>9</maxWeakCount>
  <stageThreshold>-1.5693696737289429e+00</stageThreshold>
  <weakClassifiers>
    <_>
      <internalNodes>
        0 -1 22773 -2.7468141168355942e-02</internalNodes>
      <leafValues>
        5.2631579339504242e-02 -7.5395429134368896e-01</leafValues></_>
    <_>
      <internalNodes>
        0 -1 148287 2.8471907717175782e-04</internalNodes>
      <leafValues>
        -6.4975112676620483e-01 1.2117588520050049e-01</leafValues></_>
    <_>
      <internalNodes>
        0 -1 13300 1.7583713633939624e-04</internalNodes>
      <leafValues>
        1.7818465828895569e-01 -7.2701543569564819e-01</leafValues></_>
    <_>
      <internalNodes>
        0 -1 116728 -2.7181794866919518e-03</internalNodes>
      <leafValues>
        3.6547172069549561e-01 -3.8817596435546875e-01</leafValues></_>
    <_>
      <internalNodes>
        0 -1 114401 -1.1947526218136773e-04</internalNodes>
      <leafValues>
        -6.2174707651138306e-01 2.0071287453174591e-01</leafValues></_>
    <_>
      <internalNodes>
        0 -1 33242 -1.7429166473448277e-03</internalNodes>
      <leafValues>
        3.7377524375915527e-01 -3.4662705659866333e-01</leafValues></_>
    <_>
      <internalNodes>
        0 -1 56054 1.9204160571098328e-01</internalNodes>
      <leafValues>
        -2.3843339085578918e-01 6.4717471599578857e-01</leafValues></_>
    <_>
      <internalNodes>
        0 -1 161021 2.2726137831341475e-04</internalNodes>
      <leafValues>
        -3.3009132742881775e-01 5.1306420564651489e-01</leafValues></_>
    <_>
      <internalNodes>
        0 -1 160275 -1.4618792920373380e-04</internalNodes>
      <leafValues>
        -6.5942180156707764e-01 2.4144893884658813e-01</leafValues></_></weakClassifiers></stage9>
</opencv_storage>
