<?xml version="1.0"?>
<opencv_storage>
<stage15>
  <maxWeakCount>6</maxWeakCount>
  <stageThreshold>-2.8692311048507690e-01</stageThreshold>
  <weakClassifiers>
    <_>
      <internalNodes>
        0 -1 10722 -4.8498705029487610e-02</internalNodes>
      <leafValues>
        7.2000002861022949e-01 -1.7948718369007111e-01</leafValues></_>
    <_>
      <internalNodes>
        0 -1 162258 6.5977184567600489e-04</internalNodes>
      <leafValues>
        2.6482886075973511e-01 -9.1468894481658936e-01</leafValues></_>
    <_>
      <internalNodes>
        0 -1 157408 1.0870294645428658e-03</internalNodes>
      <leafValues>
        -3.2102757692337036e-01 6.8794542551040649e-01</leafValues></_>
    <_>
      <internalNodes>
        0 -1 116840 -5.1312055438756943e-03</internalNodes>
      <leafValues>
        7.2627270221710205e-01 -3.2450234889984131e-01</leafValues></_>
    <_>
      <internalNodes>
        0 -1 161333 -7.4956260505132377e-05</internalNodes>
      <leafValues>
        -6.9572085142135620e-01 3.3676660060882568e-01</leafValues></_>
    <_>
      <internalNodes>
        0 -1 142158 3.5792367998510599e-04</internalNodes>
      <leafValues>
        2.2093608975410461e-01 -8.3424586057662964e-01</leafValues></_></weakClassifiers></stage15>
</opencv_storage>
