<?xml version="1.0"?>
<opencv_storage>
<stage17>
  <maxWeakCount>7</maxWeakCount>
  <stageThreshold>-5.0853335857391357e-01</stageThreshold>
  <weakClassifiers>
    <_>
      <internalNodes>
        0 -1 8931 -2.7845026925206184e-02</internalNodes>
      <leafValues>
        7.7777779102325439e-01 -1.5662650763988495e-01</leafValues></_>
    <_>
      <internalNodes>
        0 -1 154907 -4.9158220645040274e-04</internalNodes>
      <leafValues>
        5.3682005405426025e-01 -3.0399447679519653e-01</leafValues></_>
    <_>
      <internalNodes>
        0 -1 13372 3.6878438550047576e-05</internalNodes>
      <leafValues>
        3.0777066946029663e-01 -6.3628852367401123e-01</leafValues></_>
    <_>
      <internalNodes>
        0 -1 114371 8.2567380741238594e-04</internalNodes>
      <leafValues>
        -4.1885265707969666e-01 4.1520899534225464e-01</leafValues></_>
    <_>
      <internalNodes>
        0 -1 162157 9.3423179350793362e-04</internalNodes>
      <leafValues>
        1.9623365998268127e-01 -9.7628593444824219e-01</leafValues></_>
    <_>
      <internalNodes>
        0 -1 22232 -6.3933013007044792e-04</internalNodes>
      <leafValues>
        4.7291010618209839e-01 -4.4934275746345520e-01</leafValues></_>
    <_>
      <internalNodes>
        0 -1 11038 -1.2038098066113889e-04</internalNodes>
      <leafValues>
        5.8299863338470459e-01 -5.0272947549819946e-01</leafValues></_></weakClassifiers></stage17>
</opencv_storage>
